/* Generated by Edge Impulse
 *
 * Permission is hereby granted, free of charge, to any person obtaining a copy
 * of this software and associated documentation files (the "Software"), to deal
 * in the Software without restriction, including without limitation the rights
 * to use, copy, modify, merge, publish, distribute, sublicense, and/or sell
 * copies of the Software, and to permit persons to whom the Software is
 * furnished to do so, subject to the following conditions:
 *
 * The above copyright notice and this permission notice shall be included in
 * all copies or substantial portions of the Software.
 *
 * THE SOFTWARE IS PROVIDED "AS IS", WITHOUT WARRANTY OF ANY KIND, EXPRESS OR
 * IMPLIED, INCLUDING BUT NOT LIMITED TO THE WARRANTIES OF MERCHANTABILITY,
 * FITNESS FOR A PARTICULAR PURPOSE AND NONINFRINGEMENT. IN NO EVENT SHALL THE
 * AUTHORS OR COPYRIGHT HOLDERS BE LIABLE FOR ANY CLAIM, DAMAGES OR OTHER
 * LIABILITY, WHETHER IN AN ACTION OF CONTRACT, TORT OR OTHERWISE, ARISING FROM,
 * OUT OF OR IN CONNECTION WITH THE SOFTWARE OR THE USE OR OTHER DEALINGS IN THE
 * SOFTWARE.
 */

#ifndef _EI_CLASSIFIER_TFLITE_LEARN_4_H_
#define _EI_CLASSIFIER_TFLITE_LEARN_4_H_

#define EI_CLASSIFIER_TFLITE_LEARN_4_ARENA_SIZE     2982
const size_t tflite_learn_4_arena_size = 2982;

#ifdef EI_CLASSIFIER_TFLITE_ARENA_SIZE
#if EI_CLASSIFIER_TFLITE_ARENA_SIZE < EI_CLASSIFIER_TFLITE_LEARN_4_ARENA_SIZE
#undef EI_CLASSIFIER_TFLITE_ARENA_SIZE
#define EI_CLASSIFIER_TFLITE_ARENA_SIZE EI_CLASSIFIER_TFLITE_LEARN_4_ARENA_SIZE
#endif // #if EI_CLASSIFIER_TFLITE_ARENA_SIZE < EI_CLASSIFIER_TFLITE_LEARN_4_ARENA_SIZE
#else
#define EI_CLASSIFIER_TFLITE_ARENA_SIZE EI_CLASSIFIER_TFLITE_LEARN_4_ARENA_SIZE
#endif // #ifdef EI_CLASSIFIER_TFLITE_ARENA_SIZE

#if defined __GNUC__
#define ALIGN(X) __attribute__((aligned(X)))
#elif defined _MSC_VER
#define ALIGN(X) __declspec(align(X))
#elif defined __TASKING__
#define ALIGN(X) __align(X)
#else
#define ALIGN(X)
#endif

ALIGN(16) const unsigned char tflite_learn_4[] = {
  0x20, 0x00, 0x00, 0x00, 0x54, 0x46, 0x4c, 0x33, 0x00, 0x00, 0x00, 0x00,
  0x14, 0x00, 0x20, 0x00, 0x1c, 0x00, 0x18, 0x00, 0x14, 0x00, 0x10, 0x00,
  0x0c, 0x00, 0x00, 0x00, 0x08, 0x00, 0x04, 0x00, 0x14, 0x00, 0x00, 0x00,
  0x1c, 0x00, 0x00, 0x00, 0x8c, 0x00, 0x00, 0x00, 0xe4, 0x00, 0x00, 0x00,
  0x64, 0x06, 0x00, 0x00, 0x74, 0x06, 0x00, 0x00, 0x38, 0x0d, 0x00, 0x00,
  0x03, 0x00, 0x00, 0x00, 0x01, 0x00, 0x00, 0x00, 0x10, 0x00, 0x00, 0x00,
  0x00, 0x00, 0x0a, 0x00, 0x10, 0x00, 0x0c, 0x00, 0x08, 0x00, 0x04, 0x00,
  0x0a, 0x00, 0x00, 0x00, 0x0c, 0x00, 0x00, 0x00, 0x1c, 0x00, 0x00, 0x00,
  0x3c, 0x00, 0x00, 0x00, 0x0f, 0x00, 0x00, 0x00, 0x73, 0x65, 0x72, 0x76,
  0x69, 0x6e, 0x67, 0x5f, 0x64, 0x65, 0x66, 0x61, 0x75, 0x6c, 0x74, 0x00,
  0x01, 0x00, 0x00, 0x00, 0x04, 0x00, 0x00, 0x00, 0x9c, 0xff, 0xff, 0xff,
  0x0a, 0x00, 0x00, 0x00, 0x04, 0x00, 0x00, 0x00, 0x08, 0x00, 0x00, 0x00,
  0x6f, 0x75, 0x74, 0x70, 0x75, 0x74, 0x5f, 0x30, 0x00, 0x00, 0x00, 0x00,
  0x01, 0x00, 0x00, 0x00, 0x04, 0x00, 0x00, 0x00, 0x82, 0xf9, 0xff, 0xff,
  0x04, 0x00, 0x00, 0x00, 0x01, 0x00, 0x00, 0x00, 0x78, 0x00, 0x00, 0x00,
  0x02, 0x00, 0x00, 0x00, 0x34, 0x00, 0x00, 0x00, 0x04, 0x00, 0x00, 0x00,
  0xdc, 0xff, 0xff, 0xff, 0x0d, 0x00, 0x00, 0x00, 0x04, 0x00, 0x00, 0x00,
  0x13, 0x00, 0x00, 0x00, 0x43, 0x4f, 0x4e, 0x56, 0x45, 0x52, 0x53, 0x49,
  0x4f, 0x4e, 0x5f, 0x4d, 0x45, 0x54, 0x41, 0x44, 0x41, 0x54, 0x41, 0x00,
  0x08, 0x00, 0x0c, 0x00, 0x08, 0x00, 0x04, 0x00, 0x08, 0x00, 0x00, 0x00,
  0x0c, 0x00, 0x00, 0x00, 0x04, 0x00, 0x00, 0x00, 0x13, 0x00, 0x00, 0x00,
  0x6d, 0x69, 0x6e, 0x5f, 0x72, 0x75, 0x6e, 0x74, 0x69, 0x6d, 0x65, 0x5f,
  0x76, 0x65, 0x72, 0x73, 0x69, 0x6f, 0x6e, 0x00, 0x0e, 0x00, 0x00, 0x00,
  0x7c, 0x05, 0x00, 0x00, 0x74, 0x05, 0x00, 0x00, 0x5c, 0x05, 0x00, 0x00,
  0x38, 0x05, 0x00, 0x00, 0x00, 0x05, 0x00, 0x00, 0x28, 0x04, 0x00, 0x00,
  0xc8, 0x03, 0x00, 0x00, 0xac, 0x00, 0x00, 0x00, 0xa4, 0x00, 0x00, 0x00,
  0x9c, 0x00, 0x00, 0x00, 0x94, 0x00, 0x00, 0x00, 0x8c, 0x00, 0x00, 0x00,
  0x6c, 0x00, 0x00, 0x00, 0x04, 0x00, 0x00, 0x00, 0x2a, 0xfa, 0xff, 0xff,
  0x04, 0x00, 0x00, 0x00, 0x58, 0x00, 0x00, 0x00, 0x0c, 0x00, 0x00, 0x00,
  0x08, 0x00, 0x0e, 0x00, 0x08, 0x00, 0x04, 0x00, 0x08, 0x00, 0x00, 0x00,
  0x10, 0x00, 0x00, 0x00, 0x28, 0x00, 0x00, 0x00, 0x00, 0x00, 0x06, 0x00,
  0x08, 0x00, 0x04, 0x00, 0x06, 0x00, 0x00, 0x00, 0x04, 0x00, 0x00, 0x00,
  0x01, 0x00, 0x00, 0x00, 0xeb, 0x03, 0x00, 0x00, 0x00, 0x00, 0x0a, 0x00,
  0x10, 0x00, 0x0c, 0x00, 0x08, 0x00, 0x04, 0x00, 0x0a, 0x00, 0x00, 0x00,
  0x03, 0x00, 0x00, 0x00, 0x02, 0x00, 0x00, 0x00, 0x04, 0x00, 0x00, 0x00,
  0x06, 0x00, 0x00, 0x00, 0x32, 0x2e, 0x31, 0x31, 0x2e, 0x31, 0x00, 0x00,
  0x8e, 0xfa, 0xff, 0xff, 0x04, 0x00, 0x00, 0x00, 0x10, 0x00, 0x00, 0x00,
  0x31, 0x2e, 0x31, 0x34, 0x2e, 0x30, 0x00, 0x00, 0x00, 0x00, 0x00, 0x00,
  0x00, 0x00, 0x00, 0x00, 0x78, 0xfa, 0xff, 0xff, 0x7c, 0xfa, 0xff, 0xff,
  0x80, 0xfa, 0xff, 0xff, 0x84, 0xfa, 0xff, 0xff, 0xba, 0xfa, 0xff, 0xff,
  0x04, 0x00, 0x00, 0x00, 0x0c, 0x03, 0x00, 0x00, 0x1a, 0xfa, 0xce, 0x6f,
  0x26, 0x3a, 0x2b, 0xc5, 0x2b, 0xb3, 0x01, 0x24, 0xa9, 0xd5, 0xff, 0x47,
  0x2a, 0x49, 0xd1, 0xd8, 0x61, 0xee, 0x60, 0x18, 0xa8, 0x49, 0xe5, 0xb4,
  0xab, 0xb2, 0x25, 0x21, 0x3c, 0xad, 0xa5, 0x2f, 0xc0, 0x49, 0xf9, 0xab,
  0xff, 0x46, 0x1d, 0xf2, 0x06, 0x2b, 0x2a, 0x3a, 0x58, 0xb8, 0x19, 0xfd,
  0x21, 0x2e, 0xbb, 0x5e, 0x3f, 0x71, 0xd0, 0xfb, 0x03, 0x5f, 0xf9, 0x2e,
  0x3d, 0xfc, 0x3d, 0xda, 0xc4, 0xfc, 0x56, 0x44, 0x6b, 0x52, 0xe2, 0xb7,
  0xe6, 0x21, 0x2f, 0xe8, 0xb9, 0xab, 0x25, 0xb7, 0x29, 0x42, 0x50, 0xe7,
  0xa3, 0x01, 0xa5, 0x21, 0xbe, 0x58, 0x15, 0x35, 0xf2, 0x1b, 0x54, 0x92,
  0x28, 0xa1, 0xfe, 0xd5, 0x50, 0x42, 0xdf, 0xa7, 0xcf, 0x31, 0x23, 0xa5,
  0xde, 0xd1, 0x9b, 0xed, 0x2c, 0xa5, 0x2f, 0xd0, 0x36, 0xf3, 0x39, 0xf7,
  0x5d, 0x2c, 0xaf, 0x55, 0x58, 0x37, 0x38, 0x31, 0xef, 0xac, 0xd3, 0x21,
  0x43, 0xbf, 0x25, 0xc3, 0xde, 0x44, 0x38, 0xb0, 0x3a, 0x5c, 0x3b, 0xd5,
  0x30, 0x5b, 0xd7, 0x3d, 0x12, 0x68, 0xa3, 0x18, 0x43, 0x1e, 0x1f, 0xb4,
  0xb6, 0xb4, 0x54, 0xe8, 0xd0, 0x3f, 0xe4, 0x16, 0xc2, 0xc7, 0xbc, 0x39,
  0x30, 0x3d, 0xfa, 0xea, 0xf6, 0x5e, 0xed, 0xf1, 0xe3, 0x06, 0x3e, 0x40,
  0xaf, 0xa1, 0x26, 0xc0, 0x5e, 0xb8, 0xe1, 0xd1, 0xe4, 0xa6, 0x19, 0xfe,
  0x4d, 0xf4, 0x19, 0xef, 0xae, 0x10, 0x68, 0xdd, 0x11, 0x9b, 0xd1, 0x94,
  0x47, 0x0d, 0xe8, 0xbc, 0x26, 0xdc, 0x09, 0xb2, 0xb1, 0xf5, 0xcd, 0x44,
  0xe5, 0x34, 0xd7, 0xbb, 0x7e, 0xfd, 0xee, 0x44, 0xbd, 0x19, 0x98, 0x3d,
  0xb9, 0x23, 0x15, 0xe1, 0xf8, 0xb7, 0xd8, 0x8f, 0xd1, 0x3e, 0xd1, 0x01,
  0xf5, 0xf3, 0xfa, 0x24, 0x19, 0x03, 0xcd, 0xe0, 0x5d, 0x45, 0xc5, 0x09,
  0xc8, 0x3b, 0xd1, 0xed, 0x4f, 0xc1, 0x66, 0x09, 0x36, 0x9a, 0xfa, 0xec,
  0xa8, 0x36, 0xa0, 0x27, 0xa9, 0x67, 0x96, 0x03, 0x6f, 0x59, 0x25, 0x38,
  0x34, 0xe5, 0x4b, 0xe0, 0x54, 0xd1, 0x40, 0xcb, 0x87, 0xf3, 0xc4, 0xb2,
  0x5d, 0x55, 0xc0, 0xc8, 0xf7, 0xdd, 0x5f, 0xfc, 0x07, 0x88, 0x06, 0x23,
  0x57, 0x0b, 0xa0, 0xd6, 0x93, 0xdd, 0x0b, 0x37, 0x2d, 0x5e, 0x44, 0xe5,
  0xb4, 0x4b, 0xfa, 0xcc, 0xfa, 0xfb, 0x14, 0x4c, 0x48, 0xd1, 0x12, 0xdc,
  0x21, 0xcb, 0x66, 0x10, 0x5a, 0x41, 0x5a, 0x29, 0x4a, 0x41, 0x40, 0xff,
  0x5b, 0xa0, 0x2f, 0xa8, 0xfa, 0x04, 0xa9, 0xec, 0xae, 0x63, 0xc4, 0xc1,
  0x35, 0x98, 0x0f, 0xd9, 0x3e, 0xad, 0x08, 0xd6, 0x9d, 0xac, 0xb6, 0x9b,
  0xfa, 0xae, 0x3c, 0x07, 0x4d, 0x50, 0xc9, 0xf6, 0x50, 0x1c, 0x6c, 0x6b,
  0x51, 0x1a, 0x0b, 0xeb, 0x43, 0xe5, 0xe5, 0xb3, 0x04, 0x56, 0x24, 0x4e,
  0x4f, 0xf9, 0x7f, 0x1d, 0x15, 0xb5, 0xa4, 0xdd, 0x41, 0x14, 0xff, 0x24,
  0xb3, 0x1f, 0x1c, 0xcc, 0x48, 0xb0, 0x06, 0xea, 0x24, 0x1a, 0xac, 0x34,
  0xa6, 0x52, 0x56, 0xf0, 0xe9, 0xcb, 0x37, 0x4e, 0x8e, 0xb0, 0xaf, 0xeb,
  0x68, 0x59, 0xe0, 0xae, 0xaf, 0x0c, 0x25, 0x42, 0xfc, 0xa2, 0x92, 0x77,
  0xd9, 0x5d, 0xce, 0x3c, 0x41, 0x1c, 0x74, 0xc9, 0x19, 0xeb, 0xe5, 0x63,
  0x10, 0xf7, 0xfa, 0x6c, 0x0d, 0xfd, 0x2f, 0x57, 0x23, 0x52, 0x3f, 0x0d,
  0xd2, 0xe2, 0xd0, 0x2a, 0xd0, 0xb1, 0xf7, 0x10, 0xb1, 0x96, 0x18, 0xd4,
  0x36, 0x99, 0xb3, 0x8f, 0xa0, 0x25, 0xdd, 0x97, 0x0e, 0x17, 0xc4, 0x5e,
  0x0d, 0xeb, 0x4a, 0xd7, 0x22, 0x2d, 0xb1, 0x35, 0x27, 0xd3, 0xe8, 0xe9,
  0x60, 0xef, 0xdc, 0x0d, 0x91, 0x51, 0x34, 0x35, 0x4a, 0xb3, 0x9f, 0xfc,
  0x8f, 0xe1, 0xe5, 0x51, 0x54, 0x99, 0x56, 0xe5, 0x13, 0x10, 0x1c, 0x56,
  0x00, 0xd6, 0xcb, 0x92, 0xfc, 0xaa, 0xd0, 0xa6, 0xa6, 0xef, 0xdc, 0xd0,
  0x93, 0x9f, 0x71, 0xf2, 0x03, 0x1d, 0x9c, 0xb4, 0x9e, 0xee, 0x1a, 0x33,
  0xfa, 0x53, 0x79, 0xa8, 0xae, 0x26, 0x0a, 0xcc, 0xde, 0x2e, 0x3a, 0x27,
  0x69, 0x9d, 0xad, 0x7c, 0x93, 0xc3, 0xb7, 0x0a, 0x40, 0xb7, 0x5e, 0x6b,
  0xd2, 0x4f, 0xa2, 0xca, 0x0a, 0x9f, 0x3a, 0xf5, 0x78, 0xcd, 0xd6, 0x46,
  0xf7, 0xbf, 0xb1, 0x19, 0x55, 0xe4, 0x53, 0xd1, 0x95, 0xc5, 0xf5, 0xcb,
  0xef, 0x04, 0x03, 0xdc, 0x0e, 0xab, 0x1d, 0x22, 0x61, 0x09, 0x35, 0x0b,
  0x1d, 0x85, 0x3d, 0x8a, 0x15, 0xfc, 0xe5, 0xbf, 0xf0, 0xff, 0xbc, 0x0f,
  0xbf, 0xc0, 0x1a, 0xe1, 0xfe, 0xee, 0x8c, 0x02, 0xe2, 0xc3, 0xf4, 0xe2,
  0x4e, 0xdd, 0xd0, 0xad, 0x1d, 0xa0, 0xa1, 0xdd, 0x13, 0x14, 0xc6, 0x3c,
  0xa1, 0xdc, 0x29, 0xd8, 0xa3, 0xbe, 0x1f, 0xcf, 0x26, 0xd7, 0xd0, 0x63,
  0xcf, 0x39, 0x19, 0xfa, 0x4c, 0xbe, 0xdc, 0xc7, 0x1d, 0xa6, 0xcf, 0x05,
  0x3b, 0x41, 0x60, 0x60, 0xd7, 0xf0, 0x6b, 0x37, 0xe6, 0xd2, 0x51, 0xcd,
  0x5e, 0x9f, 0xc9, 0xce, 0x2c, 0x5b, 0xc6, 0x44, 0xe3, 0xa9, 0x71, 0xb9,
  0xb7, 0xe2, 0x0b, 0xe6, 0xda, 0x01, 0xa1, 0xf1, 0x14, 0x16, 0x53, 0x58,
  0xb5, 0x3c, 0xca, 0xe0, 0x19, 0xb4, 0x34, 0x0c, 0xc4, 0xfa, 0x01, 0xdb,
  0xa1, 0xd6, 0xa7, 0xd5, 0xba, 0xb4, 0x1a, 0xb7, 0xc6, 0x29, 0xcf, 0x59,
  0xca, 0x52, 0xd2, 0xa8, 0x19, 0xd0, 0x8c, 0xd0, 0x41, 0xd3, 0xbc, 0xa3,
  0x67, 0x4f, 0x19, 0xb7, 0xaf, 0x24, 0x48, 0xe8, 0xec, 0xd8, 0xe4, 0x28,
  0xf3, 0x49, 0x3b, 0xa3, 0x44, 0x3b, 0x26, 0x18, 0xb9, 0x1a, 0x8b, 0xba,
  0x15, 0xd4, 0x9b, 0x4d, 0xa4, 0xed, 0xfa, 0xe3, 0xbe, 0x06, 0x6e, 0xb9,
  0x02, 0x47, 0xb4, 0xfc, 0x14, 0x8e, 0x04, 0xf5, 0xd2, 0xfd, 0xff, 0xff,
  0x04, 0x00, 0x00, 0x00, 0x50, 0x00, 0x00, 0x00, 0xff, 0x02, 0x00, 0x00,
  0xc8, 0x01, 0x00, 0x00, 0x84, 0xfe, 0xff, 0xff, 0x41, 0xff, 0xff, 0xff,
  0xc7, 0xfe, 0xff, 0xff, 0x04, 0x03, 0x00, 0x00, 0xdc, 0xfd, 0xff, 0xff,
  0xf3, 0x02, 0x00, 0x00, 0xb3, 0xfe, 0xff, 0xff, 0x11, 0x02, 0x00, 0x00,
  0xec, 0x01, 0x00, 0x00, 0xee, 0x02, 0x00, 0x00, 0x6a, 0xff, 0xff, 0xff,
  0x9f, 0xfd, 0xff, 0xff, 0x00, 0x02, 0x00, 0x00, 0xb0, 0xfd, 0xff, 0xff,
  0xcc, 0xfd, 0xff, 0xff, 0xb9, 0x02, 0x00, 0x00, 0x4d, 0x02, 0x00, 0x00,
  0xae, 0x03, 0x00, 0x00, 0x2e, 0xfe, 0xff, 0xff, 0x04, 0x00, 0x00, 0x00,
  0xc8, 0x00, 0x00, 0x00, 0x21, 0xb8, 0xd1, 0x0e, 0x60, 0x13, 0x70, 0x94,
  0xf4, 0xcf, 0x0f, 0x01, 0x4e, 0x75, 0x2c, 0xce, 0x06, 0xe7, 0xc1, 0x07,
  0xc9, 0x8e, 0x4b, 0x3f, 0x31, 0xec, 0xd1, 0xa1, 0x9d, 0x0c, 0xdd, 0xc7,
  0x59, 0x32, 0x3d, 0x5d, 0xeb, 0x1d, 0xe9, 0xef, 0xf5, 0xa7, 0x09, 0x68,
  0xda, 0xd6, 0xe9, 0x22, 0xda, 0xfe, 0x27, 0x39, 0xf0, 0xb6, 0xff, 0xb7,
  0x5c, 0xad, 0xad, 0xc1, 0x46, 0x1c, 0x61, 0x08, 0xbf, 0x4c, 0xcb, 0xf4,
  0xf4, 0x55, 0x67, 0x45, 0xaa, 0xa0, 0x12, 0xc7, 0xe5, 0xe8, 0x62, 0x6d,
  0xe6, 0x46, 0xb5, 0xdc, 0xb1, 0x49, 0xe0, 0x2f, 0xaf, 0x49, 0x5f, 0x4b,
  0xe3, 0x2e, 0x29, 0xa4, 0xd2, 0x74, 0x43, 0x53, 0xa4, 0x3a, 0xb7, 0x2e,
  0xdf, 0x87, 0xf4, 0x41, 0x90, 0xc9, 0x3f, 0x2d, 0xca, 0x34, 0xe0, 0xbe,
  0xd5, 0x30, 0xb5, 0xf9, 0x63, 0x38, 0xc5, 0xba, 0x46, 0x48, 0x06, 0xf5,
  0xf2, 0x0f, 0x40, 0x3a, 0xab, 0xd0, 0x18, 0xe2, 0x32, 0x03, 0xe9, 0xfa,
  0xed, 0x4e, 0x35, 0x38, 0xfd, 0x58, 0x5c, 0x81, 0x62, 0xdc, 0xc4, 0x60,
  0x53, 0xf1, 0x95, 0x44, 0x5b, 0xf4, 0x16, 0x38, 0x4c, 0x32, 0x43, 0x2c,
  0x5b, 0x33, 0xa7, 0x02, 0xef, 0x18, 0x6f, 0x29, 0xfc, 0xa1, 0xee, 0x63,
  0xb4, 0x5a, 0xdc, 0xff, 0x39, 0xc8, 0xf7, 0x03, 0x48, 0x62, 0xed, 0x21,
  0x56, 0xb5, 0xce, 0x44, 0xa9, 0xc7, 0x47, 0xe2, 0xec, 0x6b, 0xfd, 0x68,
  0x02, 0xff, 0xff, 0xff, 0x04, 0x00, 0x00, 0x00, 0x28, 0x00, 0x00, 0x00,
  0x05, 0xfe, 0xff, 0xff, 0x42, 0xff, 0xff, 0xff, 0x7e, 0x02, 0x00, 0x00,
  0xbc, 0x03, 0x00, 0x00, 0x8c, 0x03, 0x00, 0x00, 0x3c, 0xfe, 0xff, 0xff,
  0x44, 0x03, 0x00, 0x00, 0xfc, 0xfd, 0xff, 0xff, 0xa7, 0x03, 0x00, 0x00,
  0xe9, 0x03, 0x00, 0x00, 0x36, 0xff, 0xff, 0xff, 0x04, 0x00, 0x00, 0x00,
  0x14, 0x00, 0x00, 0x00, 0x3d, 0xa2, 0x48, 0x71, 0x7f, 0xbe, 0xda, 0x97,
  0x15, 0x5d, 0x44, 0x0f, 0xe5, 0xdb, 0x9a, 0xfa, 0x94, 0x3b, 0x9f, 0x13,
  0x56, 0xff, 0xff, 0xff, 0x04, 0x00, 0x00, 0x00, 0x08, 0x00, 0x00, 0x00,
  0xb2, 0x01, 0x00, 0x00, 0x4e, 0xfe, 0xff, 0xff, 0x38, 0xff, 0xff, 0xff,
  0x3c, 0xff, 0xff, 0xff, 0x0f, 0x00, 0x00, 0x00, 0x4d, 0x4c, 0x49, 0x52,
  0x20, 0x43, 0x6f, 0x6e, 0x76, 0x65, 0x72, 0x74, 0x65, 0x64, 0x2e, 0x00,
  0x01, 0x00, 0x00, 0x00, 0x14, 0x00, 0x00, 0x00, 0x00, 0x00, 0x0e, 0x00,
  0x18, 0x00, 0x14, 0x00, 0x10, 0x00, 0x0c, 0x00, 0x08, 0x00, 0x04, 0x00,
  0x0e, 0x00, 0x00, 0x00, 0x14, 0x00, 0x00, 0x00, 0x1c, 0x00, 0x00, 0x00,
  0x28, 0x01, 0x00, 0x00, 0x2c, 0x01, 0x00, 0x00, 0x30, 0x01, 0x00, 0x00,
  0x04, 0x00, 0x00, 0x00, 0x6d, 0x61, 0x69, 0x6e, 0x00, 0x00, 0x00, 0x00,
  0x04, 0x00, 0x00, 0x00, 0xd0, 0x00, 0x00, 0x00, 0x88, 0x00, 0x00, 0x00,
  0x50, 0x00, 0x00, 0x00, 0x14, 0x00, 0x00, 0x00, 0x00, 0x00, 0x0e, 0x00,
  0x1a, 0x00, 0x14, 0x00, 0x10, 0x00, 0x0c, 0x00, 0x0b, 0x00, 0x04, 0x00,
  0x0e, 0x00, 0x00, 0x00, 0x1c, 0x00, 0x00, 0x00, 0x00, 0x00, 0x00, 0x09,
  0x1c, 0x00, 0x00, 0x00, 0x20, 0x00, 0x00, 0x00, 0x01, 0x00, 0x00, 0x00,
  0x00, 0x00, 0x06, 0x00, 0x08, 0x00, 0x04, 0x00, 0x06, 0x00, 0x00, 0x00,
  0x00, 0x00, 0x80, 0x3f, 0x01, 0x00, 0x00, 0x00, 0x0a, 0x00, 0x00, 0x00,
  0x01, 0x00, 0x00, 0x00, 0x09, 0x00, 0x00, 0x00, 0x96, 0xff, 0xff, 0xff,
  0x14, 0x00, 0x00, 0x00, 0x00, 0x00, 0x00, 0x08, 0x10, 0x00, 0x00, 0x00,
  0x14, 0x00, 0x00, 0x00, 0x04, 0x00, 0x04, 0x00, 0x04, 0x00, 0x00, 0x00,
  0x01, 0x00, 0x00, 0x00, 0x09, 0x00, 0x00, 0x00, 0x03, 0x00, 0x00, 0x00,
  0x08, 0x00, 0x00, 0x00, 0x02, 0x00, 0x00, 0x00, 0x01, 0x00, 0x00, 0x00,
  0xca, 0xff, 0xff, 0xff, 0x10, 0x00, 0x00, 0x00, 0x00, 0x00, 0x00, 0x08,
  0x10, 0x00, 0x00, 0x00, 0x14, 0x00, 0x00, 0x00, 0xba, 0xff, 0xff, 0xff,
  0x00, 0x00, 0x00, 0x01, 0x01, 0x00, 0x00, 0x00, 0x08, 0x00, 0x00, 0x00,
  0x03, 0x00, 0x00, 0x00, 0x07, 0x00, 0x00, 0x00, 0x04, 0x00, 0x00, 0x00,
  0x03, 0x00, 0x00, 0x00, 0x00, 0x00, 0x0e, 0x00, 0x16, 0x00, 0x00, 0x00,
  0x10, 0x00, 0x0c, 0x00, 0x0b, 0x00, 0x04, 0x00, 0x0e, 0x00, 0x00, 0x00,
  0x18, 0x00, 0x00, 0x00, 0x00, 0x00, 0x00, 0x08, 0x18, 0x00, 0x00, 0x00,
  0x1c, 0x00, 0x00, 0x00, 0x00, 0x00, 0x06, 0x00, 0x08, 0x00, 0x07, 0x00,
  0x06, 0x00, 0x00, 0x00, 0x00, 0x00, 0x00, 0x01, 0x01, 0x00, 0x00, 0x00,
  0x07, 0x00, 0x00, 0x00, 0x03, 0x00, 0x00, 0x00, 0x00, 0x00, 0x00, 0x00,
  0x06, 0x00, 0x00, 0x00, 0x05, 0x00, 0x00, 0x00, 0x01, 0x00, 0x00, 0x00,
  0x0a, 0x00, 0x00, 0x00, 0x01, 0x00, 0x00, 0x00, 0x00, 0x00, 0x00, 0x00,
  0x0b, 0x00, 0x00, 0x00, 0xf8, 0x04, 0x00, 0x00, 0x68, 0x04, 0x00, 0x00,
  0xfc, 0x03, 0x00, 0x00, 0x80, 0x03, 0x00, 0x00, 0x14, 0x03, 0x00, 0x00,
  0xa0, 0x02, 0x00, 0x00, 0x34, 0x02, 0x00, 0x00, 0x98, 0x01, 0x00, 0x00,
  0xf4, 0x00, 0x00, 0x00, 0x70, 0x00, 0x00, 0x00, 0x04, 0x00, 0x00, 0x00,
  0x4a, 0xfb, 0xff, 0xff, 0x00, 0x00, 0x00, 0x01, 0x14, 0x00, 0x00, 0x00,
  0x30, 0x00, 0x00, 0x00, 0x0b, 0x00, 0x00, 0x00, 0x00, 0x00, 0x00, 0x09,
  0x44, 0x00, 0x00, 0x00, 0x34, 0xfb, 0xff, 0xff, 0x08, 0x00, 0x00, 0x00,
  0x10, 0x00, 0x00, 0x00, 0x01, 0x00, 0x00, 0x00, 0x80, 0xff, 0xff, 0xff,
  0xff, 0xff, 0xff, 0xff, 0x01, 0x00, 0x00, 0x00, 0x00, 0x00, 0x80, 0x3b,
  0x19, 0x00, 0x00, 0x00, 0x53, 0x74, 0x61, 0x74, 0x65, 0x66, 0x75, 0x6c,
  0x50, 0x61, 0x72, 0x74, 0x69, 0x74, 0x69, 0x6f, 0x6e, 0x65, 0x64, 0x43,
  0x61, 0x6c, 0x6c, 0x3a, 0x30, 0x00, 0x00, 0x00, 0x02, 0x00, 0x00, 0x00,
  0x01, 0x00, 0x00, 0x00, 0x02, 0x00, 0x00, 0x00, 0xb2, 0xfb, 0xff, 0xff,
  0x00, 0x00, 0x00, 0x01, 0x14, 0x00, 0x00, 0x00, 0x30, 0x00, 0x00, 0x00,
  0x0a, 0x00, 0x00, 0x00, 0x00, 0x00, 0x00, 0x09, 0x5c, 0x00, 0x00, 0x00,
  0x9c, 0xfb, 0xff, 0xff, 0x08, 0x00, 0x00, 0x00, 0x10, 0x00, 0x00, 0x00,
  0x01, 0x00, 0x00, 0x00, 0x00, 0x00, 0x00, 0x00, 0x00, 0x00, 0x00, 0x00,
  0x01, 0x00, 0x00, 0x00, 0x79, 0xf7, 0x1b, 0x3d, 0x32, 0x00, 0x00, 0x00,
  0x73, 0x65, 0x71, 0x75, 0x65, 0x6e, 0x74, 0x69, 0x61, 0x6c, 0x2f, 0x79,
  0x5f, 0x70, 0x72, 0x65, 0x64, 0x2f, 0x4d, 0x61, 0x74, 0x4d, 0x75, 0x6c,
  0x3b, 0x73, 0x65, 0x71, 0x75, 0x65, 0x6e, 0x74, 0x69, 0x61, 0x6c, 0x2f,
  0x79, 0x5f, 0x70, 0x72, 0x65, 0x64, 0x2f, 0x42, 0x69, 0x61, 0x73, 0x41,
  0x64, 0x64, 0x00, 0x00, 0x02, 0x00, 0x00, 0x00, 0x01, 0x00, 0x00, 0x00,
  0x02, 0x00, 0x00, 0x00, 0x32, 0xfc, 0xff, 0xff, 0x00, 0x00, 0x00, 0x01,
  0x14, 0x00, 0x00, 0x00, 0x34, 0x00, 0x00, 0x00, 0x09, 0x00, 0x00, 0x00,
  0x00, 0x00, 0x00, 0x09, 0x7c, 0x00, 0x00, 0x00, 0x1c, 0xfc, 0xff, 0xff,
  0x08, 0x00, 0x00, 0x00, 0x14, 0x00, 0x00, 0x00, 0x01, 0x00, 0x00, 0x00,
  0x80, 0xff, 0xff, 0xff, 0xff, 0xff, 0xff, 0xff, 0x00, 0x00, 0x00, 0x00,
  0x01, 0x00, 0x00, 0x00, 0x6e, 0xfa, 0xc4, 0x3c, 0x4c, 0x00, 0x00, 0x00,
  0x73, 0x65, 0x71, 0x75, 0x65, 0x6e, 0x74, 0x69, 0x61, 0x6c, 0x2f, 0x64,
  0x65, 0x6e, 0x73, 0x65, 0x5f, 0x31, 0x2f, 0x4d, 0x61, 0x74, 0x4d, 0x75,
  0x6c, 0x3b, 0x73, 0x65, 0x71, 0x75, 0x65, 0x6e, 0x74, 0x69, 0x61, 0x6c,
  0x2f, 0x64, 0x65, 0x6e, 0x73, 0x65, 0x5f, 0x31, 0x2f, 0x52, 0x65, 0x6c,
  0x75, 0x3b, 0x73, 0x65, 0x71, 0x75, 0x65, 0x6e, 0x74, 0x69, 0x61, 0x6c,
  0x2f, 0x64, 0x65, 0x6e, 0x73, 0x65, 0x5f, 0x31, 0x2f, 0x42, 0x69, 0x61,
  0x73, 0x41, 0x64, 0x64, 0x00, 0x00, 0x00, 0x00, 0x02, 0x00, 0x00, 0x00,
  0x01, 0x00, 0x00, 0x00, 0x0a, 0x00, 0x00, 0x00, 0xd2, 0xfc, 0xff, 0xff,
  0x00, 0x00, 0x00, 0x01, 0x14, 0x00, 0x00, 0x00, 0x34, 0x00, 0x00, 0x00,
  0x08, 0x00, 0x00, 0x00, 0x00, 0x00, 0x00, 0x09, 0x74, 0x00, 0x00, 0x00,
  0xbc, 0xfc, 0xff, 0xff, 0x08, 0x00, 0x00, 0x00, 0x14, 0x00, 0x00, 0x00,
  0x01, 0x00, 0x00, 0x00, 0x80, 0xff, 0xff, 0xff, 0xff, 0xff, 0xff, 0xff,
  0x00, 0x00, 0x00, 0x00, 0x01, 0x00, 0x00, 0x00, 0xa4, 0x8c, 0xa2, 0x3c,
  0x46, 0x00, 0x00, 0x00, 0x73, 0x65, 0x71, 0x75, 0x65, 0x6e, 0x74, 0x69,
  0x61, 0x6c, 0x2f, 0x64, 0x65, 0x6e, 0x73, 0x65, 0x2f, 0x4d, 0x61, 0x74,
  0x4d, 0x75, 0x6c, 0x3b, 0x73, 0x65, 0x71, 0x75, 0x65, 0x6e, 0x74, 0x69,
  0x61, 0x6c, 0x2f, 0x64, 0x65, 0x6e, 0x73, 0x65, 0x2f, 0x52, 0x65, 0x6c,
  0x75, 0x3b, 0x73, 0x65, 0x71, 0x75, 0x65, 0x6e, 0x74, 0x69, 0x61, 0x6c,
  0x2f, 0x64, 0x65, 0x6e, 0x73, 0x65, 0x2f, 0x42, 0x69, 0x61, 0x73, 0x41,
  0x64, 0x64, 0x00, 0x00, 0x02, 0x00, 0x00, 0x00, 0x01, 0x00, 0x00, 0x00,
  0x14, 0x00, 0x00, 0x00, 0x6a, 0xfd, 0xff, 0xff, 0x00, 0x00, 0x00, 0x01,
  0x14, 0x00, 0x00, 0x00, 0x34, 0x00, 0x00, 0x00, 0x07, 0x00, 0x00, 0x00,
  0x00, 0x00, 0x00, 0x09, 0x44, 0x00, 0x00, 0x00, 0x54, 0xfd, 0xff, 0xff,
  0x08, 0x00, 0x00, 0x00, 0x14, 0x00, 0x00, 0x00, 0x01, 0x00, 0x00, 0x00,
  0x00, 0x00, 0x00, 0x00, 0x00, 0x00, 0x00, 0x00, 0x00, 0x00, 0x00, 0x00,
  0x01, 0x00, 0x00, 0x00, 0x3b, 0x1c, 0x4a, 0x3b, 0x17, 0x00, 0x00, 0x00,
  0x73, 0x65, 0x71, 0x75, 0x65, 0x6e, 0x74, 0x69, 0x61, 0x6c, 0x2f, 0x64,
  0x65, 0x6e, 0x73, 0x65, 0x2f, 0x4d, 0x61, 0x74, 0x4d, 0x75, 0x6c, 0x00,
  0x02, 0x00, 0x00, 0x00, 0x14, 0x00, 0x00, 0x00, 0x27, 0x00, 0x00, 0x00,
  0xd2, 0xfd, 0xff, 0xff, 0x00, 0x00, 0x00, 0x01, 0x14, 0x00, 0x00, 0x00,
  0x30, 0x00, 0x00, 0x00, 0x06, 0x00, 0x00, 0x00, 0x00, 0x00, 0x00, 0x02,
  0x50, 0x00, 0x00, 0x00, 0xbc, 0xfd, 0xff, 0xff, 0x08, 0x00, 0x00, 0x00,
  0x10, 0x00, 0x00, 0x00, 0x01, 0x00, 0x00, 0x00, 0x00, 0x00, 0x00, 0x00,
  0x00, 0x00, 0x00, 0x00, 0x01, 0x00, 0x00, 0x00, 0x2a, 0x44, 0xe3, 0x38,
  0x27, 0x00, 0x00, 0x00, 0x73, 0x65, 0x71, 0x75, 0x65, 0x6e, 0x74, 0x69,
  0x61, 0x6c, 0x2f, 0x64, 0x65, 0x6e, 0x73, 0x65, 0x2f, 0x42, 0x69, 0x61,
  0x73, 0x41, 0x64, 0x64, 0x2f, 0x52, 0x65, 0x61, 0x64, 0x56, 0x61, 0x72,
  0x69, 0x61, 0x62, 0x6c, 0x65, 0x4f, 0x70, 0x00, 0x01, 0x00, 0x00, 0x00,
  0x14, 0x00, 0x00, 0x00, 0x42, 0xfe, 0xff, 0xff, 0x00, 0x00, 0x00, 0x01,
  0x14, 0x00, 0x00, 0x00, 0x30, 0x00, 0x00, 0x00, 0x05, 0x00, 0x00, 0x00,
  0x00, 0x00, 0x00, 0x09, 0x44, 0x00, 0x00, 0x00, 0x2c, 0xfe, 0xff, 0xff,
  0x08, 0x00, 0x00, 0x00, 0x10, 0x00, 0x00, 0x00, 0x01, 0x00, 0x00, 0x00,
  0x00, 0x00, 0x00, 0x00, 0x00, 0x00, 0x00, 0x00, 0x01, 0x00, 0x00, 0x00,
  0xf8, 0x8b, 0x83, 0x3b, 0x19, 0x00, 0x00, 0x00, 0x73, 0x65, 0x71, 0x75,
  0x65, 0x6e, 0x74, 0x69, 0x61, 0x6c, 0x2f, 0x64, 0x65, 0x6e, 0x73, 0x65,
  0x5f, 0x31, 0x2f, 0x4d, 0x61, 0x74, 0x4d, 0x75, 0x6c, 0x00, 0x00, 0x00,
  0x02, 0x00, 0x00, 0x00, 0x0a, 0x00, 0x00, 0x00, 0x14, 0x00, 0x00, 0x00,
  0xaa, 0xfe, 0xff, 0xff, 0x00, 0x00, 0x00, 0x01, 0x14, 0x00, 0x00, 0x00,
  0x34, 0x00, 0x00, 0x00, 0x04, 0x00, 0x00, 0x00, 0x00, 0x00, 0x00, 0x02,
  0x58, 0x00, 0x00, 0x00, 0x94, 0xfe, 0xff, 0xff, 0x08, 0x00, 0x00, 0x00,
  0x14, 0x00, 0x00, 0x00, 0x01, 0x00, 0x00, 0x00, 0x00, 0x00, 0x00, 0x00,
  0x00, 0x00, 0x00, 0x00, 0x00, 0x00, 0x00, 0x00, 0x01, 0x00, 0x00, 0x00,
  0xb0, 0x0d, 0xa7, 0x38, 0x29, 0x00, 0x00, 0x00, 0x73, 0x65, 0x71, 0x75,
  0x65, 0x6e, 0x74, 0x69, 0x61, 0x6c, 0x2f, 0x64, 0x65, 0x6e, 0x73, 0x65,
  0x5f, 0x31, 0x2f, 0x42, 0x69, 0x61, 0x73, 0x41, 0x64, 0x64, 0x2f, 0x52,
  0x65, 0x61, 0x64, 0x56, 0x61, 0x72, 0x69, 0x61, 0x62, 0x6c, 0x65, 0x4f,
  0x70, 0x00, 0x00, 0x00, 0x01, 0x00, 0x00, 0x00, 0x0a, 0x00, 0x00, 0x00,
  0x22, 0xff, 0xff, 0xff, 0x00, 0x00, 0x00, 0x01, 0x14, 0x00, 0x00, 0x00,
  0x30, 0x00, 0x00, 0x00, 0x03, 0x00, 0x00, 0x00, 0x00, 0x00, 0x00, 0x09,
  0x44, 0x00, 0x00, 0x00, 0x0c, 0xff, 0xff, 0xff, 0x08, 0x00, 0x00, 0x00,
  0x10, 0x00, 0x00, 0x00, 0x01, 0x00, 0x00, 0x00, 0x00, 0x00, 0x00, 0x00,
  0x00, 0x00, 0x00, 0x00, 0x01, 0x00, 0x00, 0x00, 0xac, 0x67, 0xca, 0x3b,
  0x18, 0x00, 0x00, 0x00, 0x73, 0x65, 0x71, 0x75, 0x65, 0x6e, 0x74, 0x69,
  0x61, 0x6c, 0x2f, 0x79, 0x5f, 0x70, 0x72, 0x65, 0x64, 0x2f, 0x4d, 0x61,
  0x74, 0x4d, 0x75, 0x6c, 0x00, 0x00, 0x00, 0x00, 0x02, 0x00, 0x00, 0x00,
  0x02, 0x00, 0x00, 0x00, 0x0a, 0x00, 0x00, 0x00, 0x8a, 0xff, 0xff, 0xff,
  0x00, 0x00, 0x00, 0x01, 0x14, 0x00, 0x00, 0x00, 0x30, 0x00, 0x00, 0x00,
  0x02, 0x00, 0x00, 0x00, 0x00, 0x00, 0x00, 0x02, 0x54, 0x00, 0x00, 0x00,
  0x74, 0xff, 0xff, 0xff, 0x08, 0x00, 0x00, 0x00, 0x10, 0x00, 0x00, 0x00,
  0x01, 0x00, 0x00, 0x00, 0x00, 0x00, 0x00, 0x00, 0x00, 0x00, 0x00, 0x00,
  0x01, 0x00, 0x00, 0x00, 0x60, 0xbd, 0x1b, 0x39, 0x28, 0x00, 0x00, 0x00,
  0x73, 0x65, 0x71, 0x75, 0x65, 0x6e, 0x74, 0x69, 0x61, 0x6c, 0x2f, 0x79,
  0x5f, 0x70, 0x72, 0x65, 0x64, 0x2f, 0x42, 0x69, 0x61, 0x73, 0x41, 0x64,
  0x64, 0x2f, 0x52, 0x65, 0x61, 0x64, 0x56, 0x61, 0x72, 0x69, 0x61, 0x62,
  0x6c, 0x65, 0x4f, 0x70, 0x00, 0x00, 0x00, 0x00, 0x01, 0x00, 0x00, 0x00,
  0x02, 0x00, 0x00, 0x00, 0x00, 0x00, 0x16, 0x00, 0x1c, 0x00, 0x18, 0x00,
  0x17, 0x00, 0x10, 0x00, 0x0c, 0x00, 0x08, 0x00, 0x00, 0x00, 0x00, 0x00,
  0x00, 0x00, 0x07, 0x00, 0x16, 0x00, 0x00, 0x00, 0x00, 0x00, 0x00, 0x01,
  0x20, 0x00, 0x00, 0x00, 0x40, 0x00, 0x00, 0x00, 0x01, 0x00, 0x00, 0x00,
  0x00, 0x00, 0x00, 0x09, 0x4c, 0x00, 0x00, 0x00, 0x0c, 0x00, 0x0c, 0x00,
  0x00, 0x00, 0x00, 0x00, 0x08, 0x00, 0x04, 0x00, 0x0c, 0x00, 0x00, 0x00,
  0x08, 0x00, 0x00, 0x00, 0x14, 0x00, 0x00, 0x00, 0x01, 0x00, 0x00, 0x00,
  0xc9, 0xff, 0xff, 0xff, 0xff, 0xff, 0xff, 0xff, 0x00, 0x00, 0x00, 0x00,
  0x01, 0x00, 0x00, 0x00, 0x86, 0xee, 0x0f, 0x3d, 0x13, 0x00, 0x00, 0x00,
  0x73, 0x65, 0x72, 0x76, 0x69, 0x6e, 0x67, 0x5f, 0x64, 0x65, 0x66, 0x61,
  0x75, 0x6c, 0x74, 0x5f, 0x78, 0x3a, 0x30, 0x00, 0x02, 0x00, 0x00, 0x00,
  0x01, 0x00, 0x00, 0x00, 0x27, 0x00, 0x00, 0x00, 0x02, 0x00, 0x00, 0x00,
  0x24, 0x00, 0x00, 0x00, 0x04, 0x00, 0x00, 0x00, 0xf0, 0xff, 0xff, 0xff,
  0x19, 0x00, 0x00, 0x00, 0x02, 0x00, 0x00, 0x00, 0x00, 0x00, 0x00, 0x19,
  0x0c, 0x00, 0x10, 0x00, 0x0f, 0x00, 0x00, 0x00, 0x08, 0x00, 0x04, 0x00,
  0x0c, 0x00, 0x00, 0x00, 0x09, 0x00, 0x00, 0x00, 0x04, 0x00, 0x00, 0x00,
  0x00, 0x00, 0x00, 0x09
};
unsigned int tflite_learn_4_len = 3496;
#endif // _EI_CLASSIFIER_TFLITE_LEARN_4_H_
